#ifndef SINE_MODEL_H
#define SINE_MODEL_H


unsigned int sine_model_len = 2992;
unsigned char sine_model[] = {
 0x20, 0x00, 0x00, 0x00, 0x54, 0x46, 0x4c, 0x33, 0x00, 0x00, 0x00, 0x00,
  0x00, 0x00, 0x12, 0x00, 0x1c, 0x00, 0x04, 0x00, 0x08, 0x00, 0x0c, 0x00,
  0x10, 0x00, 0x14, 0x00, 0x00, 0x00, 0x18, 0x00, 0x12, 0x00, 0x00, 0x00,
  0x03, 0x00, 0x00, 0x00, 0x64, 0x0b, 0x00, 0x00, 0x6c, 0x06, 0x00, 0x00,
  0x54, 0x06, 0x00, 0x00, 0x3c, 0x00, 0x00, 0x00, 0x04, 0x00, 0x00, 0x00,
  0x01, 0x00, 0x00, 0x00, 0x0c, 0x00, 0x00, 0x00, 0x08, 0x00, 0x0c, 0x00,
  0x04, 0x00, 0x08, 0x00, 0x08, 0x00, 0x00, 0x00, 0x08, 0x00, 0x00, 0x00,
  0x0b, 0x00, 0x00, 0x00, 0x13, 0x00, 0x00, 0x00, 0x6d, 0x69, 0x6e, 0x5f,
  0x72, 0x75, 0x6e, 0x74, 0x69, 0x6d, 0x65, 0x5f, 0x76, 0x65, 0x72, 0x73,
  0x69, 0x6f, 0x6e, 0x00, 0x0c, 0x00, 0x00, 0x00, 0x08, 0x06, 0x00, 0x00,
  0xf4, 0x05, 0x00, 0x00, 0x98, 0x05, 0x00, 0x00, 0x34, 0x05, 0x00, 0x00,
  0x20, 0x05, 0x00, 0x00, 0xcc, 0x04, 0x00, 0x00, 0xb8, 0x00, 0x00, 0x00,
  0x64, 0x00, 0x00, 0x00, 0x58, 0x00, 0x00, 0x00, 0x44, 0x00, 0x00, 0x00,
  0x30, 0x00, 0x00, 0x00, 0x04, 0x00, 0x00, 0x00, 0x96, 0xfa, 0xff, 0xff,
  0x04, 0x00, 0x00, 0x00, 0x10, 0x00, 0x00, 0x00, 0x31, 0x2e, 0x35, 0x2e,
  0x30, 0x00, 0x00, 0x00, 0x00, 0x00, 0x00, 0x00, 0x00, 0x00, 0x00, 0x00,
  0x00, 0x00, 0x00, 0x00, 0x00, 0x00, 0x00, 0x00, 0x00, 0x00, 0x00, 0x00,
  0x68, 0xf5, 0xff, 0xff, 0x00, 0x00, 0x00, 0x00, 0x00, 0x00, 0x00, 0x00,
  0x00, 0x00, 0x00, 0x00, 0x78, 0xf5, 0xff, 0xff, 0x00, 0x00, 0x00, 0x00,
  0x00, 0x00, 0x00, 0x00, 0x00, 0x00, 0x00, 0x00, 0x88, 0xf5, 0xff, 0xff,
  0x00, 0x00, 0x00, 0x00, 0xe6, 0xfa, 0xff, 0xff, 0x04, 0x00, 0x00, 0x00,
  0x40, 0x00, 0x00, 0x00, 0x37, 0x07, 0x39, 0xbf, 0x06, 0xce, 0x1e, 0x3f,
  0xe7, 0x98, 0x37, 0x3f, 0xf0, 0x4e, 0xa8, 0x3e, 0x28, 0x5f, 0xfa, 0x3f,
  0x68, 0xbc, 0xdc, 0xbe, 0xbd, 0x20, 0x8c, 0xbe, 0x50, 0x42, 0x36, 0xbf,
  0x96, 0x31, 0x24, 0xbf, 0x41, 0xf9, 0xc2, 0xbf, 0x72, 0x6d, 0xc9, 0x3e,
  0x5d, 0x44, 0x6b, 0xbf, 0x78, 0xd9, 0x49, 0x3f, 0x27, 0xbd, 0xfa, 0x3e,
  0xb7, 0xf0, 0x07, 0xbf, 0xb6, 0x75, 0x46, 0xbf, 0x00, 0x00, 0x00, 0x00,
  0x36, 0xfb, 0xff, 0xff, 0x04, 0x00, 0x00, 0x00, 0x00, 0x04, 0x00, 0x00,
  0x43, 0xca, 0x72, 0xbe, 0xb8, 0x33, 0x06, 0xbe, 0x36, 0x3d, 0x07, 0x3e,
  0xf8, 0x1f, 0x7a, 0xbd, 0x17, 0xb2, 0x8c, 0x3e, 0x34, 0x80, 0xa7, 0x3d,
  0xa4, 0x5f, 0x8e, 0x3c, 0x9a, 0xe2, 0x63, 0xbe, 0x2d, 0x43, 0x9d, 0x3e,
  0xac, 0xfe, 0x9e, 0xbf, 0xc9, 0xd0, 0xa4, 0xbe, 0x2c, 0xb0, 0x2d, 0x3e,
  0xfb, 0x93, 0x8e, 0x3e, 0xac, 0xd7, 0x12, 0xbe, 0x8c, 0xfb, 0xfe, 0x3e,
  0x87, 0x0d, 0xb7, 0xbe, 0x39, 0xd7, 0x9e, 0x3e, 0x1f, 0xc0, 0x90, 0xbe,
  0x2d, 0xe7, 0x82, 0x3e, 0xc6, 0x3e, 0x9b, 0xbe, 0x9c, 0x3f, 0xf8, 0x3d,
  0x09, 0xa0, 0x86, 0x3e, 0x2b, 0x87, 0xf6, 0xbd, 0xc8, 0xdb, 0x31, 0x3d,
  0x3b, 0x8a, 0x65, 0xbe, 0x45, 0x1b, 0xf1, 0x3d, 0x2e, 0x58, 0x36, 0x3e,
  0x27, 0x79, 0x89, 0x3e, 0x80, 0x88, 0x87, 0x3d, 0x58, 0x62, 0x2a, 0xbe,
  0xf4, 0x80, 0x63, 0x3e, 0xa0, 0x01, 0x12, 0xbc, 0xd6, 0x55, 0x1a, 0xbe,
  0x8a, 0xa8, 0xbd, 0x3e, 0x49, 0x45, 0xd0, 0x3e, 0x8a, 0x4e, 0x19, 0x3e,
  0xac, 0x9e, 0xd4, 0x3d, 0x64, 0xc8, 0xe5, 0xbd, 0xf3, 0x26, 0x8a, 0x3e,
  0x3f, 0xa2, 0xfa, 0xbd, 0x78, 0x74, 0xa1, 0xbd, 0xc7, 0xed, 0x33, 0x3f,
  0x4e, 0x77, 0x17, 0x3e, 0x0b, 0xb2, 0xe1, 0x3e, 0xff, 0x99, 0x6a, 0xbe,
  0x5e, 0x86, 0xd4, 0xbe, 0x83, 0xab, 0x3c, 0xbe, 0xfe, 0x7f, 0x22, 0xbe,
  0xce, 0xf6, 0x96, 0xbe, 0x48, 0x75, 0x97, 0xbe, 0xbc, 0x51, 0xb3, 0x3d,
  0xf8, 0xbb, 0x0e, 0xbe, 0x0d, 0x47, 0x4c, 0xbe, 0x2a, 0x3e, 0x06, 0xbe,
  0xbe, 0xf1, 0x2a, 0x3d, 0x42, 0xb8, 0x4b, 0x3e, 0x56, 0x23, 0x66, 0x3e,
  0x5d, 0x78, 0x08, 0x3e, 0xed, 0x37, 0xab, 0xbe, 0x6b, 0xa9, 0xda, 0xbe,
  0x3c, 0x20, 0xa0, 0xbd, 0xc6, 0xe2, 0x69, 0x3e, 0x19, 0xa2, 0x8a, 0xbd,
  0xcb, 0xfa, 0xbc, 0x3e, 0x2f, 0x83, 0x9d, 0xbe, 0xa2, 0x9d, 0x59, 0x3f,
  0x12, 0x38, 0x13, 0xbe, 0xc8, 0x1e, 0x01, 0xbd, 0x08, 0x6a, 0x36, 0x3d,
  0xef, 0xa6, 0x3c, 0xbe, 0xac, 0x73, 0x37, 0xbe, 0x9b, 0x7a, 0x80, 0x3f,
  0x10, 0x7b, 0xf7, 0xbd, 0xe6, 0x3a, 0x1e, 0xbf, 0x33, 0x01, 0x86, 0x3e,
  0x0d, 0x82, 0x01, 0x3f, 0x7c, 0x2d, 0xa0, 0x3d, 0x74, 0x9c, 0xcb, 0x3d,
  0x2a, 0x47, 0x05, 0xbe, 0xc6, 0x3c, 0x2d, 0x3e, 0x36, 0x3c, 0x4e, 0x3e,
  0x6e, 0xdb, 0xd6, 0x3e, 0x4c, 0x21, 0x2c, 0xbe, 0x62, 0x5d, 0x0e, 0xbe,
  0xe0, 0x89, 0x3d, 0xbd, 0x66, 0xc6, 0x67, 0x3e, 0x42, 0xab, 0xf3, 0x3e,
  0x63, 0xd4, 0x56, 0xbd, 0xd0, 0x29, 0x71, 0xbe, 0xbc, 0x13, 0x34, 0xbf,
  0x40, 0x5e, 0xb1, 0xbe, 0x32, 0x4f, 0xcb, 0x3c, 0x7e, 0x37, 0x18, 0xbe,
  0x80, 0xf4, 0x22, 0xbc, 0xf1, 0xe7, 0x81, 0xbd, 0xbe, 0x9f, 0xda, 0xbe,
  0x50, 0x37, 0x7d, 0x3d, 0xdf, 0xb2, 0x84, 0x3e, 0x55, 0xe6, 0xad, 0x3e,
  0xe7, 0x0c, 0xaa, 0x3e, 0x0d, 0xa1, 0xb7, 0x3e, 0x3b, 0x96, 0xdd, 0x3e,
  0x8f, 0x72, 0xad, 0x3e, 0x2b, 0x6d, 0xc1, 0x3e, 0x80, 0xac, 0x2a, 0xbd,
  0x5e, 0x7f, 0x7d, 0xbe, 0x0c, 0xdd, 0xfd, 0x3d, 0x1e, 0xb6, 0xb7, 0xbe,
  0x76, 0xd3, 0x51, 0x3e, 0x5f, 0xb5, 0x68, 0xbe, 0x36, 0x6c, 0xb8, 0xbe,
  0x95, 0x8a, 0xd8, 0xbe, 0x7b, 0x4e, 0xa8, 0x3e, 0x1d, 0x6b, 0xaf, 0x3e,
  0x4e, 0x09, 0x40, 0x3e, 0xe0, 0xe4, 0xcf, 0xbe, 0x69, 0x91, 0xbd, 0xbe,
  0x54, 0xbb, 0xfe, 0xbd, 0xe4, 0x45, 0x83, 0xbe, 0x8a, 0x57, 0x82, 0xbe,
  0xbb, 0x57, 0xa4, 0x3e, 0xf2, 0x79, 0xde, 0x3e, 0x38, 0xaf, 0xae, 0xbd,
  0xab, 0x4d, 0xec, 0xbe, 0x35, 0x76, 0x4e, 0xbe, 0x3c, 0x0a, 0x50, 0xbe,
  0x6e, 0xe7, 0x0d, 0xbf, 0x98, 0x58, 0xb2, 0xbd, 0xb9, 0x6b, 0x9d, 0x3e,
  0x83, 0x48, 0xa5, 0x3d, 0x32, 0x49, 0x7c, 0x3e, 0xca, 0xce, 0x47, 0x3e,
  0xf1, 0xaa, 0xa5, 0xbe, 0x7d, 0x80, 0xbe, 0x3e, 0x09, 0x37, 0x37, 0x3e,
  0x97, 0x2c, 0x3a, 0x3d, 0x37, 0x3e, 0xa7, 0x3e, 0x42, 0x90, 0x84, 0xbf,
  0x30, 0x8d, 0xd7, 0xbe, 0xe2, 0xad, 0xd6, 0x3e, 0xcc, 0xbc, 0xad, 0xbd,
  0x10, 0x61, 0xc8, 0x3c, 0xaa, 0xc0, 0x01, 0x3e, 0xdc, 0xc2, 0x22, 0xbe,
  0xfa, 0xa9, 0x7c, 0xbe, 0xde, 0x8d, 0x55, 0x3d, 0xa0, 0x04, 0x00, 0xbc,
  0xfb, 0x3b, 0x95, 0x3e, 0x7f, 0x71, 0xc1, 0x3e, 0xf2, 0xd2, 0xb5, 0xbe,
  0xd7, 0xd4, 0xdf, 0xbb, 0xb1, 0xb3, 0x2e, 0xbf, 0x40, 0xcc, 0x04, 0xbd,
  0x4b, 0xbe, 0x8f, 0xbf, 0x53, 0x51, 0xc2, 0x3e, 0x7a, 0x67, 0x7a, 0xbc,
  0xdd, 0x9f, 0xdc, 0x3e, 0x00, 0xb3, 0x25, 0x3d, 0x11, 0x85, 0x78, 0x3d,
  0x13, 0xab, 0xc6, 0x3e, 0xda, 0x47, 0x4e, 0x3e, 0xc0, 0x86, 0x91, 0xbe,
  0x3e, 0x34, 0xc7, 0xbe, 0x48, 0xf4, 0x41, 0xbd, 0x64, 0x70, 0x9d, 0xbd,
  0xf0, 0x5e, 0xd4, 0xbe, 0x0b, 0x1f, 0x35, 0x3e, 0xfd, 0x24, 0x8c, 0x3e,
  0xc1, 0x14, 0x9d, 0x3e, 0xa4, 0x14, 0x2d, 0x3f, 0x1d, 0x68, 0x9c, 0x3e,
  0x6e, 0x11, 0x79, 0x3d, 0x8c, 0xb6, 0xa6, 0xbd, 0xac, 0x00, 0xc9, 0x3d,
  0xaf, 0xf1, 0x8f, 0x3c, 0xa4, 0xaa, 0x95, 0xbd, 0x6a, 0x85, 0x61, 0x3e,
  0xdf, 0xba, 0x8f, 0x3e, 0x46, 0x51, 0x0b, 0x3e, 0xa2, 0xe9, 0x4e, 0xbe,
  0xd4, 0x9c, 0xa5, 0x3d, 0xbf, 0xac, 0x57, 0xbe, 0xee, 0x8f, 0x04, 0xbf,
  0x1b, 0xe1, 0xa8, 0x3d, 0xa5, 0x9a, 0x90, 0x3e, 0x63, 0xbe, 0x36, 0x3f,
  0xa0, 0xf1, 0x77, 0xbe, 0x70, 0xb9, 0x6b, 0x3e, 0xdb, 0x36, 0x7b, 0xbe,
  0x25, 0xfc, 0xaa, 0xbe, 0x26, 0xc5, 0x57, 0xbf, 0x19, 0x24, 0xb9, 0x3e,
  0x56, 0x42, 0x39, 0x3e, 0xe5, 0xd1, 0x80, 0xbe, 0x73, 0x2f, 0x3c, 0xbe,
  0x51, 0x96, 0xdd, 0x3e, 0x70, 0x6c, 0x3d, 0x3d, 0x9d, 0x52, 0x48, 0xbe,
  0x79, 0xbe, 0x6e, 0x3e, 0xa3, 0xc5, 0x4c, 0xbd, 0x16, 0x45, 0x20, 0x3e,
  0x24, 0x17, 0x70, 0x3f, 0xa2, 0x0d, 0x97, 0xbe, 0x2e, 0x73, 0x6a, 0x3e,
  0x76, 0x18, 0x0f, 0x3e, 0x0c, 0xc4, 0xc1, 0xbd, 0x70, 0xca, 0x53, 0x3d,
  0xae, 0x28, 0x15, 0x3e, 0x7e, 0xf6, 0x9b, 0xbe, 0x87, 0xdb, 0xb1, 0xbe,
  0xf2, 0x25, 0x1c, 0xbe, 0xd6, 0x38, 0x1c, 0x3e, 0x68, 0x47, 0x80, 0x3d,
  0xe0, 0xc6, 0xf3, 0xbc, 0x54, 0x3b, 0x33, 0x3e, 0x38, 0x77, 0xf3, 0x3e,
  0x40, 0xd7, 0x52, 0x3d, 0x21, 0xc0, 0xf8, 0x3d, 0x8b, 0xab, 0xd3, 0x3e,
  0x2a, 0x22, 0xb3, 0x3c, 0x70, 0x98, 0xf9, 0x3c, 0x00, 0x5b, 0xf9, 0xbd,
  0x37, 0xf7, 0x43, 0x3d, 0x9a, 0x06, 0xb5, 0xbe, 0x26, 0x0f, 0x0d, 0xbe,
  0x17, 0x9f, 0x14, 0x3e, 0x4c, 0x8b, 0xa6, 0xbd, 0x2e, 0x09, 0x25, 0x3e,
  0x62, 0x5f, 0x69, 0xbe, 0x00, 0xa3, 0x93, 0xbe, 0x72, 0x75, 0xa2, 0xbe,
  0x47, 0x51, 0xaf, 0xbe, 0x2b, 0xd3, 0x5b, 0xbe, 0xb6, 0x50, 0x77, 0xbf,
  0x06, 0xf6, 0x1d, 0xbe, 0x13, 0xfd, 0xb5, 0x3d, 0x1e, 0x35, 0xc3, 0xbe,
  0x10, 0x72, 0xe6, 0x3c, 0x9f, 0x23, 0x05, 0x3f, 0x36, 0xd8, 0xd2, 0xbe,
  0x00, 0x76, 0xca, 0x3b, 0x9a, 0x20, 0x37, 0xbe, 0xae, 0xe3, 0x20, 0xbe,
  0x16, 0xfc, 0x17, 0x3e, 0xbd, 0xbd, 0xa3, 0xbe, 0xa6, 0x1f, 0x17, 0x3e,
  0x94, 0x1c, 0x8d, 0xbe, 0x29, 0xa9, 0x99, 0x3e, 0xf8, 0x84, 0xb5, 0xbd,
  0x7d, 0xab, 0x0e, 0x3f, 0x49, 0x6a, 0xd9, 0x3e, 0xe1, 0xeb, 0xb5, 0xbe,
  0xfd, 0xb6, 0xd4, 0x3e, 0x02, 0xb2, 0xc5, 0xbe, 0x7f, 0xa9, 0x10, 0xbf,
  0x85, 0x4f, 0xb7, 0x3e, 0x00, 0x00, 0x00, 0x00, 0x46, 0xff, 0xff, 0xff,
  0x04, 0x00, 0x00, 0x00, 0x40, 0x00, 0x00, 0x00, 0xac, 0xc2, 0x39, 0xbe,
  0x05, 0x7d, 0x23, 0x3e, 0xd4, 0x94, 0xcb, 0xbe, 0x23, 0x2f, 0x84, 0xbe,
  0x98, 0xda, 0x30, 0xbe, 0x04, 0x0f, 0x02, 0xbf, 0xcf, 0x86, 0x5f, 0x3e,
  0x42, 0x66, 0x2d, 0x3e, 0x99, 0xcc, 0xb6, 0xbe, 0x6b, 0x34, 0x0b, 0xbe,
  0x39, 0x85, 0xfd, 0xbe, 0x56, 0x79, 0x8a, 0x3e, 0xe6, 0x93, 0xcb, 0xbe,
  0x7e, 0xb4, 0x01, 0xbf, 0xa3, 0xf7, 0xc4, 0x3e, 0xee, 0x80, 0xde, 0xbe,
  0x00, 0x00, 0x00, 0x00, 0x96, 0xff, 0xff, 0xff, 0x04, 0x00, 0x00, 0x00,
  0x04, 0x00, 0x00, 0x00, 0xc0, 0x7c, 0xf6, 0x37, 0xa6, 0xff, 0xff, 0xff,
  0x04, 0x00, 0x00, 0x00, 0x40, 0x00, 0x00, 0x00, 0x66, 0xaf, 0x30, 0xbc,
  0x40, 0x05, 0xec, 0x38, 0x6c, 0x4f, 0xdf, 0xb9, 0x83, 0x02, 0x98, 0xbd,
  0xe1, 0x55, 0x2e, 0xbf, 0x98, 0x53, 0x13, 0x3d, 0x00, 0x00, 0x00, 0x00,
  0xda, 0x4f, 0x16, 0x3e, 0x9a, 0xde, 0xca, 0x3b, 0xf5, 0x9c, 0x3f, 0x3e,
  0xf1, 0x6f, 0xcb, 0x3a, 0xfb, 0x10, 0x6a, 0x3e, 0xd0, 0x5f, 0x21, 0xb9,
  0x48, 0xa5, 0x9f, 0xb9, 0x99, 0x3c, 0x43, 0x3d, 0xc1, 0xe6, 0x69, 0x3e,
  0x00, 0x00, 0x00, 0x00, 0x00, 0x00, 0x00, 0x00, 0x00, 0x00, 0x00, 0x00,
  0x00, 0x00, 0x06, 0x00, 0x08, 0x00, 0x04, 0x00, 0x06, 0x00, 0x00, 0x00,
  0x04, 0x00, 0x00, 0x00, 0x40, 0x00, 0x00, 0x00, 0x00, 0x00, 0x00, 0x00,
  0x2b, 0xb4, 0xcc, 0xbe, 0x00, 0x00, 0x00, 0x00, 0x00, 0x00, 0x00, 0x00,
  0x00, 0x00, 0x00, 0x00, 0x00, 0x00, 0x00, 0x00, 0x7a, 0x21, 0xa7, 0x3d,
  0x4f, 0x83, 0x1f, 0xbf, 0x00, 0x00, 0x00, 0x00, 0xbe, 0x0a, 0x15, 0x3f,
  0x00, 0x00, 0x00, 0x00, 0xc3, 0x0b, 0x77, 0xbe, 0x00, 0x00, 0x00, 0x00,
  0x00, 0x00, 0x00, 0x00, 0x8d, 0x15, 0x14, 0x3e, 0x00, 0x00, 0x00, 0x00,
  0x00, 0x00, 0x00, 0x00, 0x00, 0x00, 0x00, 0x00, 0x00, 0x00, 0x00, 0x00,
  0x08, 0xfb, 0xff, 0xff, 0x00, 0x00, 0x00, 0x00, 0x00, 0x00, 0x00, 0x00,
  0x00, 0x00, 0x00, 0x00, 0x18, 0xfb, 0xff, 0xff, 0x00, 0x00, 0x00, 0x00,
  0x0f, 0x00, 0x00, 0x00, 0x4d, 0x4c, 0x49, 0x52, 0x20, 0x43, 0x6f, 0x6e,
  0x76, 0x65, 0x72, 0x74, 0x65, 0x64, 0x2e, 0x00, 0x01, 0x00, 0x00, 0x00,
  0x14, 0x00, 0x00, 0x00, 0x00, 0x00, 0x0e, 0x00, 0x18, 0x00, 0x04, 0x00,
  0x08, 0x00, 0x0c, 0x00, 0x10, 0x00, 0x14, 0x00, 0x0e, 0x00, 0x00, 0x00,
  0x00, 0x01, 0x00, 0x00, 0xf4, 0x00, 0x00, 0x00, 0xe8, 0x00, 0x00, 0x00,
  0x14, 0x00, 0x00, 0x00, 0x04, 0x00, 0x00, 0x00, 0x04, 0x00, 0x00, 0x00,
  0x6d, 0x61, 0x69, 0x6e, 0x00, 0x00, 0x00, 0x00, 0x03, 0x00, 0x00, 0x00,
  0x90, 0x00, 0x00, 0x00, 0x48, 0x00, 0x00, 0x00, 0x04, 0x00, 0x00, 0x00,
  0xce, 0xff, 0xff, 0xff, 0x00, 0x00, 0x00, 0x08, 0x18, 0x00, 0x00, 0x00,
  0x0c, 0x00, 0x00, 0x00, 0x04, 0x00, 0x00, 0x00, 0x94, 0xfb, 0xff, 0xff,
  0x01, 0x00, 0x00, 0x00, 0x09, 0x00, 0x00, 0x00, 0x03, 0x00, 0x00, 0x00,
  0x08, 0x00, 0x00, 0x00, 0x06, 0x00, 0x00, 0x00, 0x03, 0x00, 0x00, 0x00,
  0x00, 0x00, 0x0e, 0x00, 0x14, 0x00, 0x00, 0x00, 0x08, 0x00, 0x0c, 0x00,
  0x07, 0x00, 0x10, 0x00, 0x0e, 0x00, 0x00, 0x00, 0x00, 0x00, 0x00, 0x08,
  0x1c, 0x00, 0x00, 0x00, 0x10, 0x00, 0x00, 0x00, 0x04, 0x00, 0x00, 0x00,
  0xba, 0xff, 0xff, 0xff, 0x00, 0x00, 0x00, 0x01, 0x01, 0x00, 0x00, 0x00,
  0x08, 0x00, 0x00, 0x00, 0x03, 0x00, 0x00, 0x00, 0x07, 0x00, 0x00, 0x00,
  0x05, 0x00, 0x00, 0x00, 0x02, 0x00, 0x00, 0x00, 0x00, 0x00, 0x0e, 0x00,
  0x16, 0x00, 0x00, 0x00, 0x08, 0x00, 0x0c, 0x00, 0x07, 0x00, 0x10, 0x00,
  0x0e, 0x00, 0x00, 0x00, 0x00, 0x00, 0x00, 0x08, 0x24, 0x00, 0x00, 0x00,
  0x18, 0x00, 0x00, 0x00, 0x0c, 0x00, 0x00, 0x00, 0x00, 0x00, 0x06, 0x00,
  0x08, 0x00, 0x07, 0x00, 0x06, 0x00, 0x00, 0x00, 0x00, 0x00, 0x00, 0x01,
  0x01, 0x00, 0x00, 0x00, 0x07, 0x00, 0x00, 0x00, 0x03, 0x00, 0x00, 0x00,
  0x00, 0x00, 0x00, 0x00, 0x04, 0x00, 0x00, 0x00, 0x01, 0x00, 0x00, 0x00,
  0x01, 0x00, 0x00, 0x00, 0x09, 0x00, 0x00, 0x00, 0x01, 0x00, 0x00, 0x00,
  0x00, 0x00, 0x00, 0x00, 0x0a, 0x00, 0x00, 0x00, 0x88, 0x03, 0x00, 0x00,
  0x14, 0x03, 0x00, 0x00, 0xa4, 0x02, 0x00, 0x00, 0x44, 0x02, 0x00, 0x00,
  0xfc, 0x01, 0x00, 0x00, 0xb4, 0x01, 0x00, 0x00, 0x6c, 0x01, 0x00, 0x00,
  0xdc, 0x00, 0x00, 0x00, 0x4c, 0x00, 0x00, 0x00, 0x04, 0x00, 0x00, 0x00,
  0xb4, 0xfc, 0xff, 0xff, 0x34, 0x00, 0x00, 0x00, 0x0a, 0x00, 0x00, 0x00,
  0x1c, 0x00, 0x00, 0x00, 0x14, 0x00, 0x00, 0x00, 0x04, 0x00, 0x00, 0x00,
  0x02, 0x00, 0x00, 0x00, 0xff, 0xff, 0xff, 0xff, 0x01, 0x00, 0x00, 0x00,
  0xa0, 0xfc, 0xff, 0xff, 0x08, 0x00, 0x00, 0x00, 0x49, 0x64, 0x65, 0x6e,
  0x74, 0x69, 0x74, 0x79, 0x00, 0x00, 0x00, 0x00, 0x02, 0x00, 0x00, 0x00,
  0x01, 0x00, 0x00, 0x00, 0x01, 0x00, 0x00, 0x00, 0xf8, 0xfc, 0xff, 0xff,
  0x7c, 0x00, 0x00, 0x00, 0x09, 0x00, 0x00, 0x00, 0x1c, 0x00, 0x00, 0x00,
  0x14, 0x00, 0x00, 0x00, 0x04, 0x00, 0x00, 0x00, 0x02, 0x00, 0x00, 0x00,
  0xff, 0xff, 0xff, 0xff, 0x10, 0x00, 0x00, 0x00, 0xe4, 0xfc, 0xff, 0xff,
  0x52, 0x00, 0x00, 0x00, 0x73, 0x65, 0x71, 0x75, 0x65, 0x6e, 0x74, 0x69,
  0x61, 0x6c, 0x5f, 0x32, 0x2f, 0x64, 0x65, 0x6e, 0x73, 0x65, 0x5f, 0x37,
  0x2f, 0x4d, 0x61, 0x74, 0x4d, 0x75, 0x6c, 0x3b, 0x73, 0x65, 0x71, 0x75,
  0x65, 0x6e, 0x74, 0x69, 0x61, 0x6c, 0x5f, 0x32, 0x2f, 0x64, 0x65, 0x6e,
  0x73, 0x65, 0x5f, 0x37, 0x2f, 0x42, 0x69, 0x61, 0x73, 0x41, 0x64, 0x64,
  0x3b, 0x73, 0x65, 0x71, 0x75, 0x65, 0x6e, 0x74, 0x69, 0x61, 0x6c, 0x5f,
  0x32, 0x2f, 0x64, 0x65, 0x6e, 0x73, 0x65, 0x5f, 0x37, 0x2f, 0x52, 0x65,
  0x6c, 0x75, 0x00, 0x00, 0x02, 0x00, 0x00, 0x00, 0x01, 0x00, 0x00, 0x00,
  0x10, 0x00, 0x00, 0x00, 0x84, 0xfd, 0xff, 0xff, 0x7c, 0x00, 0x00, 0x00,
  0x08, 0x00, 0x00, 0x00, 0x1c, 0x00, 0x00, 0x00, 0x14, 0x00, 0x00, 0x00,
  0x04, 0x00, 0x00, 0x00, 0x02, 0x00, 0x00, 0x00, 0xff, 0xff, 0xff, 0xff,
  0x10, 0x00, 0x00, 0x00, 0x70, 0xfd, 0xff, 0xff, 0x52, 0x00, 0x00, 0x00,
  0x73, 0x65, 0x71, 0x75, 0x65, 0x6e, 0x74, 0x69, 0x61, 0x6c, 0x5f, 0x32,
  0x2f, 0x64, 0x65, 0x6e, 0x73, 0x65, 0x5f, 0x36, 0x2f, 0x4d, 0x61, 0x74,
  0x4d, 0x75, 0x6c, 0x3b, 0x73, 0x65, 0x71, 0x75, 0x65, 0x6e, 0x74, 0x69,
  0x61, 0x6c, 0x5f, 0x32, 0x2f, 0x64, 0x65, 0x6e, 0x73, 0x65, 0x5f, 0x36,
  0x2f, 0x42, 0x69, 0x61, 0x73, 0x41, 0x64, 0x64, 0x3b, 0x73, 0x65, 0x71,
  0x75, 0x65, 0x6e, 0x74, 0x69, 0x61, 0x6c, 0x5f, 0x32, 0x2f, 0x64, 0x65,
  0x6e, 0x73, 0x65, 0x5f, 0x36, 0x2f, 0x52, 0x65, 0x6c, 0x75, 0x00, 0x00,
  0x02, 0x00, 0x00, 0x00, 0x01, 0x00, 0x00, 0x00, 0x10, 0x00, 0x00, 0x00,
  0x7a, 0xfe, 0xff, 0xff, 0x34, 0x00, 0x00, 0x00, 0x07, 0x00, 0x00, 0x00,
  0x0c, 0x00, 0x00, 0x00, 0x04, 0x00, 0x00, 0x00, 0xec, 0xfd, 0xff, 0xff,
  0x1b, 0x00, 0x00, 0x00, 0x73, 0x65, 0x71, 0x75, 0x65, 0x6e, 0x74, 0x69,
  0x61, 0x6c, 0x5f, 0x32, 0x2f, 0x64, 0x65, 0x6e, 0x73, 0x65, 0x5f, 0x38,
  0x2f, 0x4d, 0x61, 0x74, 0x4d, 0x75, 0x6c, 0x00, 0x02, 0x00, 0x00, 0x00,
  0x01, 0x00, 0x00, 0x00, 0x10, 0x00, 0x00, 0x00, 0xbe, 0xfe, 0xff, 0xff,
  0x34, 0x00, 0x00, 0x00, 0x06, 0x00, 0x00, 0x00, 0x0c, 0x00, 0x00, 0x00,
  0x04, 0x00, 0x00, 0x00, 0x30, 0xfe, 0xff, 0xff, 0x1b, 0x00, 0x00, 0x00,
  0x73, 0x65, 0x71, 0x75, 0x65, 0x6e, 0x74, 0x69, 0x61, 0x6c, 0x5f, 0x32,
  0x2f, 0x64, 0x65, 0x6e, 0x73, 0x65, 0x5f, 0x37, 0x2f, 0x4d, 0x61, 0x74,
  0x4d, 0x75, 0x6c, 0x00, 0x02, 0x00, 0x00, 0x00, 0x10, 0x00, 0x00, 0x00,
  0x10, 0x00, 0x00, 0x00, 0x02, 0xff, 0xff, 0xff, 0x34, 0x00, 0x00, 0x00,
  0x05, 0x00, 0x00, 0x00, 0x0c, 0x00, 0x00, 0x00, 0x04, 0x00, 0x00, 0x00,
  0x74, 0xfe, 0xff, 0xff, 0x1b, 0x00, 0x00, 0x00, 0x73, 0x65, 0x71, 0x75,
  0x65, 0x6e, 0x74, 0x69, 0x61, 0x6c, 0x5f, 0x32, 0x2f, 0x64, 0x65, 0x6e,
  0x73, 0x65, 0x5f, 0x36, 0x2f, 0x4d, 0x61, 0x74, 0x4d, 0x75, 0x6c, 0x00,
  0x02, 0x00, 0x00, 0x00, 0x10, 0x00, 0x00, 0x00, 0x01, 0x00, 0x00, 0x00,
  0x46, 0xff, 0xff, 0xff, 0x50, 0x00, 0x00, 0x00, 0x04, 0x00, 0x00, 0x00,
  0x0c, 0x00, 0x00, 0x00, 0x04, 0x00, 0x00, 0x00, 0xb8, 0xfe, 0xff, 0xff,
  0x34, 0x00, 0x00, 0x00, 0x73, 0x65, 0x71, 0x75, 0x65, 0x6e, 0x74, 0x69,
  0x61, 0x6c, 0x5f, 0x32, 0x2f, 0x64, 0x65, 0x6e, 0x73, 0x65, 0x5f, 0x38,
  0x2f, 0x42, 0x69, 0x61, 0x73, 0x41, 0x64, 0x64, 0x2f, 0x52, 0x65, 0x61,
  0x64, 0x56, 0x61, 0x72, 0x69, 0x61, 0x62, 0x6c, 0x65, 0x4f, 0x70, 0x2f,
  0x72, 0x65, 0x73, 0x6f, 0x75, 0x72, 0x63, 0x65, 0x00, 0x00, 0x00, 0x00,
  0x01, 0x00, 0x00, 0x00, 0x01, 0x00, 0x00, 0x00, 0xa2, 0xff, 0xff, 0xff,
  0x50, 0x00, 0x00, 0x00, 0x03, 0x00, 0x00, 0x00, 0x0c, 0x00, 0x00, 0x00,
  0x04, 0x00, 0x00, 0x00, 0x14, 0xff, 0xff, 0xff, 0x34, 0x00, 0x00, 0x00,
  0x73, 0x65, 0x71, 0x75, 0x65, 0x6e, 0x74, 0x69, 0x61, 0x6c, 0x5f, 0x32,
  0x2f, 0x64, 0x65, 0x6e, 0x73, 0x65, 0x5f, 0x37, 0x2f, 0x42, 0x69, 0x61,
  0x73, 0x41, 0x64, 0x64, 0x2f, 0x52, 0x65, 0x61, 0x64, 0x56, 0x61, 0x72,
  0x69, 0x61, 0x62, 0x6c, 0x65, 0x4f, 0x70, 0x2f, 0x72, 0x65, 0x73, 0x6f,
  0x75, 0x72, 0x63, 0x65, 0x00, 0x00, 0x00, 0x00, 0x01, 0x00, 0x00, 0x00,
  0x10, 0x00, 0x00, 0x00, 0x00, 0x00, 0x0e, 0x00, 0x14, 0x00, 0x04, 0x00,
  0x00, 0x00, 0x08, 0x00, 0x0c, 0x00, 0x10, 0x00, 0x0e, 0x00, 0x00, 0x00,
  0x50, 0x00, 0x00, 0x00, 0x02, 0x00, 0x00, 0x00, 0x0c, 0x00, 0x00, 0x00,
  0x04, 0x00, 0x00, 0x00, 0x80, 0xff, 0xff, 0xff, 0x34, 0x00, 0x00, 0x00,
  0x73, 0x65, 0x71, 0x75, 0x65, 0x6e, 0x74, 0x69, 0x61, 0x6c, 0x5f, 0x32,
  0x2f, 0x64, 0x65, 0x6e, 0x73, 0x65, 0x5f, 0x36, 0x2f, 0x42, 0x69, 0x61,
  0x73, 0x41, 0x64, 0x64, 0x2f, 0x52, 0x65, 0x61, 0x64, 0x56, 0x61, 0x72,
  0x69, 0x61, 0x62, 0x6c, 0x65, 0x4f, 0x70, 0x2f, 0x72, 0x65, 0x73, 0x6f,
  0x75, 0x72, 0x63, 0x65, 0x00, 0x00, 0x00, 0x00, 0x01, 0x00, 0x00, 0x00,
  0x10, 0x00, 0x00, 0x00, 0x14, 0x00, 0x18, 0x00, 0x04, 0x00, 0x00, 0x00,
  0x08, 0x00, 0x0c, 0x00, 0x10, 0x00, 0x00, 0x00, 0x00, 0x00, 0x14, 0x00,
  0x14, 0x00, 0x00, 0x00, 0x3c, 0x00, 0x00, 0x00, 0x01, 0x00, 0x00, 0x00,
  0x20, 0x00, 0x00, 0x00, 0x18, 0x00, 0x00, 0x00, 0x04, 0x00, 0x00, 0x00,
  0x02, 0x00, 0x00, 0x00, 0xff, 0xff, 0xff, 0xff, 0x01, 0x00, 0x00, 0x00,
  0x04, 0x00, 0x04, 0x00, 0x04, 0x00, 0x00, 0x00, 0x0d, 0x00, 0x00, 0x00,
  0x64, 0x65, 0x6e, 0x73, 0x65, 0x5f, 0x36, 0x5f, 0x69, 0x6e, 0x70, 0x75,
  0x74, 0x00, 0x00, 0x00, 0x02, 0x00, 0x00, 0x00, 0x01, 0x00, 0x00, 0x00,
  0x01, 0x00, 0x00, 0x00, 0x01, 0x00, 0x00, 0x00, 0x10, 0x00, 0x00, 0x00,
  0x0c, 0x00, 0x10, 0x00, 0x07, 0x00, 0x00, 0x00, 0x08, 0x00, 0x0c, 0x00,
  0x0c, 0x00, 0x00, 0x00, 0x00, 0x00, 0x00, 0x09, 0x09, 0x00, 0x00, 0x00,
  0x09, 0x00, 0x00, 0x00
};

#endif //SINE_MODEL_H